{
    "merges": {
        "111,32": 256,
        "97,32": 257,
        "101,32": 258,
        "115,32": 259,
        "46,32": 260,
        "101,114": 261,
        "101,115": 262,
        "109,32": 263,
        "44,32": 264,
        "110,116": 265,
        "113,117": 266,
        "45,45": 267,
        "195,163": 268,
        "99,111": 269,
        "100,258": 270,
        "100,256": 271,
        "97,114": 272,
        "111,114": 273,
        "195,169": 274,
        "268,256": 275,
        "97,259": 276,
        "42,42": 277,
        "266,258": 278,
        "99,105": 279,
        "114,101": 280,
        "109,97": 281,
        "101,265": 282,
        "195,167": 283,
        "115,116": 284,
        "109,257": 285,
        "117,110": 286,
        "195,161": 287,
        "105,110": 288,
        "97,108": 289,
        "274,32": 290,
        "267,32": 291,
        "195,170": 292,
        "101,263": 293,
        "97,100": 294,
        "97,110": 295,
        "111,259": 296,
        "114,105": 297,
        "97,260": 298,
        "112,272": 299,
        "115,105": 300,
        "65,32": 301,
        "111,260": 302,
        "115,256": 303,
        "101,110": 304,
        "105,118": 305,
        "111,99": 306,
        "101,108": 307,
        "117,263": 308,
        "117,285": 309,
        "109,256": 310,
        "277,32": 311,
        "115,258": 312,
        "117,32": 313,
        "111,110": 314,
        "305,261": 315,
        "100,257": 316,
        "286,315": 317,
        "35,35": 318,
        "110,275": 319,
        "101,259": 320,
        "112,114": 321,
        "79,32": 322,
        "306,292": 323,
        "97,115": 324,
        "195,173": 325,
        "101,109": 326,
        "262,116": 327,
        "45,32": 328,
        "115,111": 329,
        "112,111": 330,
        "63,32": 331,
        "323,32": 332,
        "103,117": 333,
        "120,105": 334,
        "116,117": 335,
        "102,273": 336,
        "100,105": 337,
        "317,303": 338,
        "195,179": 339,
        "118,105": 340,
        "112,273": 341,
        "109,282": 342,
        "283,275": 343,
        "112,261": 344,
        "105,99": 345,
        "101,105": 346,
        "68,69": 347,
        "287,32": 348,
        "105,115": 349,
        "58,32": 350,
        "112,108": 351,
        "295,271": 352,
        "269,110": 353,
        "101,99": 354,
        "105,259": 355,
        "111,115": 356,
        "118,332": 357,
        "111,313": 358,
        "35,32": 359,
        "267,328": 360,
        "98,114": 361,
        "110,279": 362,
        "100,97": 363,
        "114,262": 364,
        "292,362": 365,
        "299,257": 366,
        "101,116": 367,
        "195,186": 368,
        "117,108": 369,
        "269,109": 370,
        "261,32": 371,
        "65,76": 372,
        "272,32": 373,
        "115,101": 374,
        "99,104": 375,
        "62,32": 376,
        "260,69": 377,
        "334,284": 378,
        "111,264": 379,
        "102,105": 380,
        "281,116": 381,
        "256,338": 382,
        "124,32": 383,
        "97,264": 384,
        "109,262": 385,
        "105,116": 386,
        "109,111": 387,
        "101,283": 388,
        "269,310": 389,
        "321,111": 390,
        "99,369": 391,
        "363,270": 392,
        "327,348": 393,
        "97,116": 394,
        "294,257": 395,
        "34,32": 396,
        "333,265": 397,
        "195,181": 398,
        "318,359": 399,
        "262,115": 400,
        "102,325": 401,
        "344,397": 402,
        "111,108": 403,
        "300,99": 404,
        "115,117": 405,
        "287,116": 406,
        "115,339": 407,
        "269,263": 408,
        "195,137": 409,
        "409,32": 410,
        "67,79": 411,
        "114,257": 412,
        "101,122": 413,
        "365,257": 414,
        "97,263": 415,
        "100,111": 416,
        "368,109": 417,
        "417,261": 418,
        "105,114": 419,
        "286,271": 420,
        "97,103": 421,
        "101,378": 422,
        "105,32": 423,
        "336,281": 424,
        "116,293": 425,
        "411,347": 426,
        "426,88": 427,
        "427,32": 428,
        "48,32": 429,
        "110,256": 430,
        "42,32": 431,
        "112,280": 432,
        "97,271": 433,
        "115,97": 434,
        "398,320": 435,
        "100,117": 436,
        "273,32": 437,
        "299,116": 438,
        "97,99": 439,
        "262,112": 440,
        "110,418": 441,
        "77,69": 442,
        "289,105": 443,
        "110,257": 444,
        "281,355": 445,
        "97,265": 446,
        "288,257": 447,
        "105,257": 448,
        "345,257": 449,
        "283,268": 450,
        "428,79": 451,
        "451,442": 452,
        "452,71": 453,
        "453,65": 454,
        "454,45": 455,
        "455,429": 456,
        "32,77": 457,
        "65,78": 458,
        "32,68": 459,
        "301,82": 460,
        "335,271": 461,
        "282,114": 462,
        "256,278": 463,
        "108,105": 464,
        "100,302": 465,
        "324,264": 466,
        "100,262": 467,
        "401,404": 468,
        "81,117": 469,
        "256,270": 470,
        "456,47": 471,
        "471,47": 472,
        "472,457": 473,
        "473,458": 474,
        "474,85": 475,
        "475,372": 476,
        "476,459": 477,
        "477,460": 478,
        "478,69": 479,
        "479,372": 480,
        "480,73": 481,
        "481,68": 482,
        "482,65": 483,
        "483,347": 484,
        "78,275": 485,
        "269,265": 486,
        "294,114": 487,
        "97,109": 488,
        "370,388": 489,
        "80,421": 490,
        "490,447": 491,
        "116,114": 492,
        "297,257": 493,
        "100,296": 494,
        "326,406": 495,
        "116,261": 496,
        "484,32": 497,
        "361,258": 498,
        "256,109": 499,
        "97,118": 500,
        "100,346": 501,
        "356,264": 502,
        "117,115": 503,
        "269,349": 504,
        "360,376": 505,
        "349,303": 506,
        "330,284": 507,
        "100,298": 508,
        "111,109": 509,
        "101,120": 510,
        "261,103": 511,
        "112,487": 512,
        "319,290": 513,
        "282,258": 514,
        "32,61": 515,
        "515,32": 516,
        "516,277": 517,
        "289,32": 518,
        "341,32": 519,
        "100,101": 520,
        "108,257": 521,
        "114,117": 522,
        "112,307": 523,
        "10,497": 524,
        "364,507": 525,
        "100,276": 526,
        "322,338": 527,
        "116,257": 528,
        "97,281": 529,
        "381,274": 530,
        "381,495": 531,
        "469,352": 532,
        "390,341": 533,
        "297,116": 534,
        "86,332": 535,
        "329,498": 536,
        "102,286": 537,
        "279,314": 538,
        "370,351": 539,
        "257,278": 540,
        "354,258": 541,
        "288,104": 542,
        "114,256": 543,
        "342,258": 544,
        "300,109": 545,
        "118,307": 546,
        "260,83": 547,
        "302,69": 548,
        "280,108": 549,
        "289,103": 550,
        "105,109": 551,
        "298,301": 552,
        "296,270": 553,
        "97,343": 554,
        "114,111": 555,
        "99,108": 556,
        "101,103": 557,
        "46,46": 558,
        "109,276": 559,
        "104,117": 560,
        "97,266": 561,
        "272,260": 562,
        "377,32": 563,
        "283,435": 564,
        "311,291": 565,
        "105,265": 566,
        "336,285": 567,
        "32,331": 568,
        "267,267": 569,
        "111,271": 570,
        "360,359": 571,
        "407,32": 572,
        "280,443": 573,
        "290,257": 574,
        "560,281": 575,
        "324,260": 576,
        "304,434": 577,
        "378,258": 578,
        "117,259": 579,
        "385,310": 580,
        "118,413": 581,
        "105,103": 582,
        "436,276": 583,
        "314,270": 584,
        "403,104": 585,
        "400,257": 586,
        "115,275": 587,
        "97,335": 588,
        "112,297": 589,
        "101,260": 590,
        "416,355": 591,
        "101,100": 592,
        "300,284": 593,
        "533,343": 594,
        "42,34": 595,
        "46,34": 596,
        "596,431": 597,
        "499,420": 598,
        "462,258": 599,
        "111,117": 600,
        "97,98": 601,
        "307,257": 602,
        "115,326": 603,
        "542,257": 604,
        "73,301": 605,
        "290,256": 606,
        "350,277": 607,
        "322,278": 608,
        "77,276": 609,
        "108,117": 610,
        "304,271": 611,
        "374,333": 612,
        "385,285": 613,
        "274,391": 614,
        "114,276": 615,
        "438,258": 616,
        "99,272": 617,
        "501,257": 618,
        "102,439": 619,
        "530,493": 620,
        "304,511": 621,
        "280,118": 622,
        "375,529": 623,
        "109,273": 624,
        "375,557": 625,
        "105,284": 626,
        "109,368": 627,
        "532,357": 628,
        "51,264": 629,
        "340,361": 630,
        "318,32": 631,
        "342,256": 632,
        "461,278": 633,
        "115,264": 634,
        "97,486": 635,
        "99,297": 636,
        "118,346": 637,
        "260,410": 638,
        "300,32": 639,
        "115,282": 640,
        "262,312": 641,
        "374,299": 642,
        "299,541": 643,
        "101,266": 644,
        "112,577": 645,
        "337,102": 646,
        "101,264": 647,
        "550,256": 648,
        "80,437": 649,
        "277,82": 650,
        "310,316": 651,
        "468,256": 652,
        "115,293": 653,
        "353,115": 654,
        "654,279": 655,
        "58,311": 656,
        "531,449": 657,
        "380,279": 658,
        "110,111": 659,
        "279,556": 660,
        "266,414": 661,
        "419,32": 662,
        "311,328": 663,
        "383,383": 664,
        "32,383": 665,
        "424,343": 666,
        "631,322": 667,
        "319,393": 668,
        "432,110": 669,
        "537,538": 670,
        "67,111": 671,
        "257,270": 672,
        "573,392": 673,
        "325,546": 674,
        "432,279": 675,
        "675,115": 676,
        "504,257": 677,
        "256,102": 678,
        "97,423": 679,
        "110,286": 680,
        "680,99": 681,
        "681,257": 682,
        "571,73": 683,
        "683,347": 684,
        "684,605": 685,
        "69,578": 686,
        "505,595": 687,
        "68,101": 688,
        "256,580": 689,
        "597,360": 690,
        "116,570": 691,
        "446,320": 692,
        "491,49": 693,
        "256,110": 694,
        "450,111": 695,
        "306,101": 696,
        "696,295": 697,
        "422,258": 698,
        "646,261": 699,
        "115,614": 700,
        "101,279": 701,
        "274,263": 702,
        "649,278": 703,
        "365,298": 704,
        "505,650": 705,
        "705,262": 706,
        "706,117": 707,
        "707,651": 708,
        "708,73": 709,
        "709,618": 710,
        "376,376": 711,
        "387,101": 712,
        "358,257": 713,
        "261,105": 714,
        "46,311": 715,
        "351,295": 716,
        "99,364": 717,
        "99,622": 718,
        "658,514": 719,
        "405,344": 720,
        "413,257": 721,
        "100,294": 722,
        "377,521": 723,
        "258,256": 724,
        "73,115": 725,
        "725,303": 726,
        "441,256": 727,
        "98,307": 728,
        "116,105": 729,
        "287,334": 730,
        "280,103": 731,
        "356,260": 732,
        "49,264": 733,
        "57,32": 734,
        "534,310": 735,
        "43,32": 736,
        "311,664": 737,
        "287,297": 738,
        "407,464": 739,
        "100,379": 740,
        "97,669": 741,
        "341,278": 742,
        "289,544": 743,
        "257,108": 744,
        "288,333": 745,
        "545,351": 746,
        "115,115": 747,
        "99,117": 748,
        "67,395": 749,
        "276,270": 750,
        "118,679": 751,
        "116,371": 752,
        "603,321": 753,
        "753,258": 754,
        "49,32": 755,
        "116,326": 756,
        "104,97": 757,
        "757,340": 758,
        "758,257": 759,
        "317,329": 760,
        "295,103": 761,
        "402,373": 762,
        "116,258": 763,
        "291,257": 764,
        "122,32": 765,
        "281,103": 766,
        "366,257": 767,
        "337,280": 768,
        "262,266": 769,
        "314,526": 770,
        "84,117": 771,
        "645,342": 772,
        "115,371": 773,
        "380,108": 774,
        "256,271": 775,
        "588,280": 776,
        "776,122": 777,
        "298,69": 778,
        "288,284": 779,
        "327,522": 780,
        "780,335": 781,
        "551,341": 782,
        "85,263": 783,
        "583,619": 784,
        "330,270": 785,
        "104,348": 786,
        "103,261": 787,
        "261,116": 788,
        "262,264": 789,
        "610,103": 790,
        "103,289": 791,
        "114,97": 792,
        "108,258": 793,
        "109,345": 794,
        "110,296": 795,
        "114,391": 796,
        "78,395": 797,
        "98,273": 798,
        "273,257": 799,
        "330,265": 800,
        "256,291": 801,
        "41,32": 802,
        "593,101": 803,
        "116,297": 804,
        "111,423": 805,
        "627,404": 806,
        "408,257": 807,
        "109,304": 808,
        "450,302": 809,
        "54,32": 810,
        "98,386": 811,
        "402,276": 812,
        "317,115": 813,
        "290,382": 814,
        "304,100": 815,
        "327,500": 816,
        "387,284": 817,
        "97,355": 818,
        "336,257": 819,
        "257,673": 820,
        "266,352": 821,
        "561,602": 822,
        "343,270": 823,
        "46,396": 824,
        "85,285": 825,
        "581,32": 826,
        "281,105": 827,
        "464,103": 828,
        "465,301": 829,
        "66,582": 830,
        "830,32": 831,
        "831,66": 832,
        "832,761": 833,
        "637,256": 834,
        "278,357": 835,
        "670,257": 836,
        "771,271": 837,
        "699,282": 838,
        "195,160": 839,
        "353,612": 840,
        "110,105": 841,
        "102,345": 842,
        "266,289": 843,
        "843,266": 844,
        "844,371": 845,
        "523,256": 846,
        "321,400": 847,
        "311,711": 848,
        "109,553": 849,
        "110,777": 850,
        "105,108": 851,
        "79,259": 852,
        "784,320": 853,
        "346,543": 854,
        "337,122": 855,
        "655,414": 856,
        "257,258": 857,
        "406,509": 858,
        "105,269": 859,
        "717,99": 860,
        "258,309": 861,
        "298,399": 862,
        "116,97": 863,
        "438,325": 864,
        "864,391": 865,
        "110,745": 866,
        "866,702": 867,
        "98,314": 868,
        "260,399": 869,
        "405,719": 870,
        "870,366": 871,
        "101,106": 872,
        "272,415": 873,
        "674,32": 874,
        "539,101": 875,
        "875,334": 876,
        "876,392": 877,
        "353,104": 878,
        "51,32": 879,
        "659,118": 880,
        "380,109": 881,
        "389,308": 882,
        "720,401": 883,
        "883,279": 884,
        "116,273": 885,
        "278,382": 886,
        "290,308": 887,
        "307,258": 888,
        "367,261": 889,
        "803,285": 890,
        "321,339": 891,
        "364,626": 892,
        "791,730": 893,
        "49,56": 894,
        "117,280": 895,
        "328,277": 896,
        "298,410": 897,
        "621,448": 898,
        "353,284": 899,
        "195,162": 900,
        "49,43": 901,
        "512,275": 902,
        "97,288": 903,
        "346,257": 904,
        "468,257": 905,
        "329,263": 906,
        "288,666": 907,
        "330,300": 908,
        "547,258": 909,
        "813,302": 910,
        "69,115": 911,
        "671,310": 912,
        "289,104": 913,
        "102,289": 914,
        "297,111": 915,
        "99,97": 916,
        "101,313": 917,
        "340,284": 918,
        "324,545": 919,
        "488,296": 920,
        "688,579": 921,
        "118,323": 922,
        "461,506": 923,
        "106,348": 924,
        "294,105": 925,
        "269,108": 926,
        "102,449": 927,
        "102,97": 928,
        "640,105": 929,
        "465,399": 930,
        "366,256": 931,
        "112,644": 932,
        "932,304": 933,
        "768,386": 934,
        "769,261": 935,
        "327,549": 936,
        "290,309": 937,
        "270,336": 938,
        "260,485": 939,
        "100,462": 940,
        "416,361": 941,
        "329,313": 942,
        "782,528": 943,
        "287,546": 944,
        "847,275": 945,
        "282,275": 946,
        "393,280": 947,
        "118,261": 948,
        "354,611": 949,
        "67,104": 950,
        "68,111": 951,
        "951,355": 952,
        "316,613": 953,
        "530,297": 954,
        "298,322": 955,
        "301,856": 956,
        "712,316": 957,
        "269,555": 958,
        "115,260": 959,
        "112,592": 960,
        "512,398": 961,
        "549,97": 962,
        "109,286": 963,
        "293,691": 964,
        "964,790": 965,
        "111,98": 966,
        "564,278": 967,
        "467,718": 968,
        "434,98": 969,
        "298,609": 970,
        "567,270": 971,
        "116,275": 972,
        "623,271": 973,
        "380,269": 974,
        "974,313": 975,
        "321,262": 976,
        "288,118": 977,
        "977,282": 978,
        "865,276": 979,
        "195,180": 980,
        "99,339": 981,
        "513,308": 982,
        "539,510": 983,
        "319,425": 984,
        "584,382": 985,
        "288,99": 986,
        "99,395": 987,
        "283,257": 988,
        "108,294": 989,
        "296,258": 990,
        "65,103": 991,
        "114,403": 992,
        "268,302": 993,
        "97,544": 994,
        "558,260": 995,
        "623,849": 996,
        "100,261": 997,
        "278,256": 998,
        "260,527": 999,
        "109,288": 1000,
        "496,817": 1001,
        "1001,394": 1002,
        "100,367": 1003,
        "1003,354": 1004,
        "257,256": 1005,
        "273,264": 1006,
        "257,99": 1007,
        "99,289": 1008,
        "660,256": 1009,
        "353,337": 1010,
        "110,117": 1011,
        "280,112": 1012,
        "1012,367": 1013,
        "272,264": 1014,
        "258,118": 1015,
        "102,805": 1016,
        "440,419": 1017,
        "270,309": 1018,
        "112,262": 1019,
        "291,309": 1020,
        "100,305": 1021,
        "594,287": 1022,
        "1022,895": 1023
    },
    "vocab": {
        "0": "\u0000",
        "1": "\u0001",
        "2": "\u0002",
        "3": "\u0003",
        "4": "\u0004",
        "5": "\u0005",
        "6": "\u0006",
        "7": "\u0007",
        "8": "\b",
        "9": "\t",
        "10": "\n",
        "11": "\u000b",
        "12": "\f",
        "13": "\r",
        "14": "\u000e",
        "15": "\u000f",
        "16": "\u0010",
        "17": "\u0011",
        "18": "\u0012",
        "19": "\u0013",
        "20": "\u0014",
        "21": "\u0015",
        "22": "\u0016",
        "23": "\u0017",
        "24": "\u0018",
        "25": "\u0019",
        "26": "\u001a",
        "27": "\u001b",
        "28": "\u001c",
        "29": "\u001d",
        "30": "\u001e",
        "31": "\u001f",
        "32": " ",
        "33": "!",
        "34": "\"",
        "35": "#",
        "36": "$",
        "37": "%",
        "38": "&",
        "39": "'",
        "40": "(",
        "41": ")",
        "42": "*",
        "43": "+",
        "44": ",",
        "45": "-",
        "46": ".",
        "47": "/",
        "48": "0",
        "49": "1",
        "50": "2",
        "51": "3",
        "52": "4",
        "53": "5",
        "54": "6",
        "55": "7",
        "56": "8",
        "57": "9",
        "58": ":",
        "59": ";",
        "60": "<",
        "61": "=",
        "62": ">",
        "63": "?",
        "64": "@",
        "65": "A",
        "66": "B",
        "67": "C",
        "68": "D",
        "69": "E",
        "70": "F",
        "71": "G",
        "72": "H",
        "73": "I",
        "74": "J",
        "75": "K",
        "76": "L",
        "77": "M",
        "78": "N",
        "79": "O",
        "80": "P",
        "81": "Q",
        "82": "R",
        "83": "S",
        "84": "T",
        "85": "U",
        "86": "V",
        "87": "W",
        "88": "X",
        "89": "Y",
        "90": "Z",
        "91": "[",
        "92": "\\",
        "93": "]",
        "94": "^",
        "95": "_",
        "96": "`",
        "97": "a",
        "98": "b",
        "99": "c",
        "100": "d",
        "101": "e",
        "102": "f",
        "103": "g",
        "104": "h",
        "105": "i",
        "106": "j",
        "107": "k",
        "108": "l",
        "109": "m",
        "110": "n",
        "111": "o",
        "112": "p",
        "113": "q",
        "114": "r",
        "115": "s",
        "116": "t",
        "117": "u",
        "118": "v",
        "119": "w",
        "120": "x",
        "121": "y",
        "122": "z",
        "123": "{",
        "124": "|",
        "125": "}",
        "126": "~",
        "127": "",
        "128": "�",
        "129": "�",
        "130": "�",
        "131": "�",
        "132": "�",
        "133": "�",
        "134": "�",
        "135": "�",
        "136": "�",
        "137": "�",
        "138": "�",
        "139": "�",
        "140": "�",
        "141": "�",
        "142": "�",
        "143": "�",
        "144": "�",
        "145": "�",
        "146": "�",
        "147": "�",
        "148": "�",
        "149": "�",
        "150": "�",
        "151": "�",
        "152": "�",
        "153": "�",
        "154": "�",
        "155": "�",
        "156": "�",
        "157": "�",
        "158": "�",
        "159": "�",
        "160": "�",
        "161": "�",
        "162": "�",
        "163": "�",
        "164": "�",
        "165": "�",
        "166": "�",
        "167": "�",
        "168": "�",
        "169": "�",
        "170": "�",
        "171": "�",
        "172": "�",
        "173": "�",
        "174": "�",
        "175": "�",
        "176": "�",
        "177": "�",
        "178": "�",
        "179": "�",
        "180": "�",
        "181": "�",
        "182": "�",
        "183": "�",
        "184": "�",
        "185": "�",
        "186": "�",
        "187": "�",
        "188": "�",
        "189": "�",
        "190": "�",
        "191": "�",
        "192": "�",
        "193": "�",
        "194": "�",
        "195": "�",
        "196": "�",
        "197": "�",
        "198": "�",
        "199": "�",
        "200": "�",
        "201": "�",
        "202": "�",
        "203": "�",
        "204": "�",
        "205": "�",
        "206": "�",
        "207": "�",
        "208": "�",
        "209": "�",
        "210": "�",
        "211": "�",
        "212": "�",
        "213": "�",
        "214": "�",
        "215": "�",
        "216": "�",
        "217": "�",
        "218": "�",
        "219": "�",
        "220": "�",
        "221": "�",
        "222": "�",
        "223": "�",
        "224": "�",
        "225": "�",
        "226": "�",
        "227": "�",
        "228": "�",
        "229": "�",
        "230": "�",
        "231": "�",
        "232": "�",
        "233": "�",
        "234": "�",
        "235": "�",
        "236": "�",
        "237": "�",
        "238": "�",
        "239": "�",
        "240": "�",
        "241": "�",
        "242": "�",
        "243": "�",
        "244": "�",
        "245": "�",
        "246": "�",
        "247": "�",
        "248": "�",
        "249": "�",
        "250": "�",
        "251": "�",
        "252": "�",
        "253": "�",
        "254": "�",
        "255": "�",
        "256": "o ",
        "257": "a ",
        "258": "e ",
        "259": "s ",
        "260": ". ",
        "261": "er",
        "262": "es",
        "263": "m ",
        "264": ", ",
        "265": "nt",
        "266": "qu",
        "267": "--",
        "268": "ã",
        "269": "co",
        "270": "de ",
        "271": "do ",
        "272": "ar",
        "273": "or",
        "274": "é",
        "275": "ão ",
        "276": "as ",
        "277": "**",
        "278": "que ",
        "279": "ci",
        "280": "re",
        "281": "ma",
        "282": "ent",
        "283": "ç",
        "284": "st",
        "285": "ma ",
        "286": "un",
        "287": "á",
        "288": "in",
        "289": "al",
        "290": "é ",
        "291": "-- ",
        "292": "ê",
        "293": "em ",
        "294": "ad",
        "295": "an",
        "296": "os ",
        "297": "ri",
        "298": "a. ",
        "299": "par",
        "300": "si",
        "301": "A ",
        "302": "o. ",
        "303": "so ",
        "304": "en",
        "305": "iv",
        "306": "oc",
        "307": "el",
        "308": "um ",
        "309": "uma ",
        "310": "mo ",
        "311": "** ",
        "312": "se ",
        "313": "u ",
        "314": "on",
        "315": "iver",
        "316": "da ",
        "317": "univer",
        "318": "##",
        "319": "não ",
        "320": "es ",
        "321": "pr",
        "322": "O ",
        "323": "ocê",
        "324": "as",
        "325": "í",
        "326": "em",
        "327": "est",
        "328": "- ",
        "329": "so",
        "330": "po",
        "331": "? ",
        "332": "ocê ",
        "333": "gu",
        "334": "xi",
        "335": "tu",
        "336": "for",
        "337": "di",
        "338": "universo ",
        "339": "ó",
        "340": "vi",
        "341": "por",
        "342": "ment",
        "343": "ção ",
        "344": "per",
        "345": "ic",
        "346": "ei",
        "347": "DE",
        "348": "á ",
        "349": "is",
        "350": ": ",
        "351": "pl",
        "352": "ando ",
        "353": "con",
        "354": "ec",
        "355": "is ",
        "356": "os",
        "357": "você ",
        "358": "ou ",
        "359": "# ",
        "360": "--- ",
        "361": "br",
        "362": "nci",
        "363": "da",
        "364": "res",
        "365": "ênci",
        "366": "para ",
        "367": "et",
        "368": "ú",
        "369": "ul",
        "370": "com",
        "371": "er ",
        "372": "AL",
        "373": "ar ",
        "374": "se",
        "375": "ch",
        "376": "> ",
        "377": ". E",
        "378": "xist",
        "379": "o, ",
        "380": "fi",
        "381": "mat",
        "382": "o universo ",
        "383": "| ",
        "384": "a, ",
        "385": "mes",
        "386": "it",
        "387": "mo",
        "388": "eç",
        "389": "como ",
        "390": "pro",
        "391": "cul",
        "392": "dade ",
        "393": "está ",
        "394": "at",
        "395": "ada ",
        "396": "\" ",
        "397": "gunt",
        "398": "õ",
        "399": "### ",
        "400": "ess",
        "401": "fí",
        "402": "pergunt",
        "403": "ol",
        "404": "sic",
        "405": "su",
        "406": "át",
        "407": "só",
        "408": "com ",
        "409": "É",
        "410": "É ",
        "411": "CO",
        "412": "ra ",
        "413": "ez",
        "414": "ência ",
        "415": "am ",
        "416": "do",
        "417": "úm",
        "418": "úmer",
        "419": "ir",
        "420": "undo ",
        "421": "ag",
        "422": "exist",
        "423": "i ",
        "424": "forma",
        "425": "tem ",
        "426": "CODE",
        "427": "CODEX",
        "428": "CODEX ",
        "429": "0 ",
        "430": "no ",
        "431": "* ",
        "432": "pre",
        "433": "ado ",
        "434": "sa",
        "435": "ões ",
        "436": "du",
        "437": "or ",
        "438": "part",
        "439": "ac",
        "440": "esp",
        "441": "númer",
        "442": "ME",
        "443": "ali",
        "444": "na ",
        "445": "mais ",
        "446": "ant",
        "447": "ina ",
        "448": "ia ",
        "449": "ica ",
        "450": "çã",
        "451": "CODEX O",
        "452": "CODEX OME",
        "453": "CODEX OMEG",
        "454": "CODEX OMEGA",
        "455": "CODEX OMEGA-",
        "456": "CODEX OMEGA-0 ",
        "457": " M",
        "458": "AN",
        "459": " D",
        "460": "A R",
        "461": "tudo ",
        "462": "entr",
        "463": "o que ",
        "464": "li",
        "465": "do. ",
        "466": "as, ",
        "467": "des",
        "468": "físic",
        "469": "Qu",
        "470": "o de ",
        "471": "CODEX OMEGA-0 /",
        "472": "CODEX OMEGA-0 //",
        "473": "CODEX OMEGA-0 // M",
        "474": "CODEX OMEGA-0 // MAN",
        "475": "CODEX OMEGA-0 // MANU",
        "476": "CODEX OMEGA-0 // MANUAL",
        "477": "CODEX OMEGA-0 // MANUAL D",
        "478": "CODEX OMEGA-0 // MANUAL DA R",
        "479": "CODEX OMEGA-0 // MANUAL DA RE",
        "480": "CODEX OMEGA-0 // MANUAL DA REAL",
        "481": "CODEX OMEGA-0 // MANUAL DA REALI",
        "482": "CODEX OMEGA-0 // MANUAL DA REALID",
        "483": "CODEX OMEGA-0 // MANUAL DA REALIDA",
        "484": "CODEX OMEGA-0 // MANUAL DA REALIDADE",
        "485": "Não ",
        "486": "cont",
        "487": "adr",
        "488": "am",
        "489": "começ",
        "490": "Pag",
        "491": "Pagina ",
        "492": "tr",
        "493": "ria ",
        "494": "dos ",
        "495": "emát",
        "496": "ter",
        "497": "CODEX OMEGA-0 // MANUAL DA REALIDADE ",
        "498": "bre ",
        "499": "o m",
        "500": "av",
        "501": "dei",
        "502": "os, ",
        "503": "us",
        "504": "cois",
        "505": "--- > ",
        "506": "isso ",
        "507": "post",
        "508": "da. ",
        "509": "om",
        "510": "ex",
        "511": "erg",
        "512": "padr",
        "513": "não é ",
        "514": "ente ",
        "515": " =",
        "516": " = ",
        "517": " = **",
        "518": "al ",
        "519": "por ",
        "520": "de",
        "521": "la ",
        "522": "ru",
        "523": "pel",
        "524": "\nCODEX OMEGA-0 // MANUAL DA REALIDADE ",
        "525": "respost",
        "526": "das ",
        "527": "O universo ",
        "528": "ta ",
        "529": "ama",
        "530": "maté",
        "531": "matemát",
        "532": "Quando ",
        "533": "propor",
        "534": "rit",
        "535": "Você ",
        "536": "sobre ",
        "537": "fun",
        "538": "cion",
        "539": "compl",
        "540": "a que ",
        "541": "ece ",
        "542": "inh",
        "543": "ro ",
        "544": "mente ",
        "545": "sim",
        "546": "vel",
        "547": ". S",
        "548": "o. E",
        "549": "rel",
        "550": "alg",
        "551": "im",
        "552": "a. A ",
        "553": "os de ",
        "554": "ação ",
        "555": "ro",
        "556": "cl",
        "557": "eg",
        "558": "..",
        "559": "mas ",
        "560": "hu",
        "561": "aqu",
        "562": "ar. ",
        "563": ". E ",
        "564": "ções ",
        "565": "** -- ",
        "566": "int",
        "567": "forma ",
        "568": " ? ",
        "569": "----",
        "570": "odo ",
        "571": "--- # ",
        "572": "só ",
        "573": "reali",
        "574": "é a ",
        "575": "huma",
        "576": "as. ",
        "577": "ensa",
        "578": "xiste ",
        "579": "us ",
        "580": "mesmo ",
        "581": "vez",
        "582": "ig",
        "583": "duas ",
        "584": "onde ",
        "585": "olh",
        "586": "essa ",
        "587": "são ",
        "588": "atu",
        "589": "pri",
        "590": "e. ",
        "591": "dois ",
        "592": "ed",
        "593": "sist",
        "594": "proporção ",
        "595": "*\"",
        "596": ".\"",
        "597": ".\"* ",
        "598": "o mundo ",
        "599": "entre ",
        "600": "ou",
        "601": "ab",
        "602": "ela ",
        "603": "sem",
        "604": "inha ",
        "605": "IA ",
        "606": "é o ",
        "607": ": **",
        "608": "O que ",
        "609": "Mas ",
        "610": "lu",
        "611": "endo ",
        "612": "segu",
        "613": "mesma ",
        "614": "écul",
        "615": "ras ",
        "616": "parte ",
        "617": "car",
        "618": "deia ",
        "619": "fac",
        "620": "matéria ",
        "621": "energ",
        "622": "rev",
        "623": "chama",
        "624": "mor",
        "625": "cheg",
        "626": "ist",
        "627": "mú",
        "628": "Quando você ",
        "629": "3, ",
        "630": "vibr",
        "631": "## ",
        "632": "mento ",
        "633": "tudo que ",
        "634": "s, ",
        "635": "acont",
        "636": "cri",
        "637": "vei",
        "638": ". É ",
        "639": "si ",
        "640": "sent",
        "641": "esse ",
        "642": "separ",
        "643": "parece ",
        "644": "equ",
        "645": "pensa",
        "646": "dif",
        "647": "e, ",
        "648": "algo ",
        "649": "Por ",
        "650": "**R",
        "651": "mo da ",
        "652": "físico ",
        "653": "sem ",
        "654": "cons",
        "655": "consci",
        "656": ":** ",
        "657": "matemática ",
        "658": "fici",
        "659": "no",
        "660": "cicl",
        "661": "quência ",
        "662": "ir ",
        "663": "** - ",
        "664": "| | ",
        "665": " | ",
        "666": "formação ",
        "667": "## O ",
        "668": "não está ",
        "669": "pren",
        "670": "funcion",
        "671": "Co",
        "672": "a de ",
        "673": "realidade ",
        "674": "ível",
        "675": "preci",
        "676": "precis",
        "677": "coisa ",
        "678": "o f",
        "679": "ai ",
        "680": "nun",
        "681": "nunc",
        "682": "nunca ",
        "683": "--- # I",
        "684": "--- # IDE",
        "685": "--- # IDEIA ",
        "686": "Existe ",
        "687": "--- > *\"",
        "688": "De",
        "689": "o mesmo ",
        "690": ".\"* --- ",
        "691": "todo ",
        "692": "antes ",
        "693": "Pagina 1",
        "694": "o n",
        "695": "ção",
        "696": "oce",
        "697": "ocean",
        "698": "existe ",
        "699": "difer",
        "700": "sécul",
        "701": "eci",
        "702": "ém ",
        "703": "Por que ",
        "704": "ência. ",
        "705": "--- > **R",
        "706": "--- > **Res",
        "707": "--- > **Resu",
        "708": "--- > **Resumo da ",
        "709": "--- > **Resumo da I",
        "710": "--- > **Resumo da Ideia ",
        "711": "> > ",
        "712": "moe",
        "713": "ou a ",
        "714": "eri",
        "715": ".** ",
        "716": "plan",
        "717": "cres",
        "718": "crev",
        "719": "ficiente ",
        "720": "super",
        "721": "eza ",
        "722": "dad",
        "723": ". Ela ",
        "724": "e o ",
        "725": "Is",
        "726": "Isso ",
        "727": "número ",
        "728": "bel",
        "729": "ti",
        "730": "áxi",
        "731": "reg",
        "732": "os. ",
        "733": "1, ",
        "734": "9 ",
        "735": "ritmo ",
        "736": "+ ",
        "737": "** | | ",
        "738": "ári",
        "739": "sóli",
        "740": "do, ",
        "741": "apren",
        "742": "porque ",
        "743": "almente ",
        "744": "a l",
        "745": "ingu",
        "746": "simpl",
        "747": "ss",
        "748": "cu",
        "749": "Cada ",
        "750": "as de ",
        "751": "vai ",
        "752": "ter ",
        "753": "sempr",
        "754": "sempre ",
        "755": "1 ",
        "756": "tem",
        "757": "ha",
        "758": "havi",
        "759": "havia ",
        "760": "universo",
        "761": "ang",
        "762": "perguntar ",
        "763": "te ",
        "764": "-- a ",
        "765": "z ",
        "766": "mag",
        "767": "para a ",
        "768": "dire",
        "769": "esqu",
        "770": "ondas ",
        "771": "Tu",
        "772": "pensament",
        "773": "ser ",
        "774": "fil",
        "775": "o do ",
        "776": "ature",
        "777": "aturez",
        "778": "a. E",
        "779": "inst",
        "780": "estru",
        "781": "estrutu",
        "782": "impor",
        "783": "Um ",
        "784": "duas fac",
        "785": "pode ",
        "786": "há ",
        "787": "ger",
        "788": "ert",
        "789": "es, ",
        "790": "lug",
        "791": "gal",
        "792": "ra",
        "793": "le ",
        "794": "mic",
        "795": "nos ",
        "796": "rcul",
        "797": "Nada ",
        "798": "bor",
        "799": "ora ",
        "800": "pont",
        "801": "o -- ",
        "802": ") ",
        "803": "siste",
        "804": "tri",
        "805": "oi ",
        "806": "músic",
        "807": "com a ",
        "808": "men",
        "809": "ção. ",
        "810": "6 ",
        "811": "bit",
        "812": "perguntas ",
        "813": "univers",
        "814": "é o universo ",
        "815": "end",
        "816": "estav",
        "817": "most",
        "818": "ais ",
        "819": "fora ",
        "820": "a realidade ",
        "821": "quando ",
        "822": "aquela ",
        "823": "ção de ",
        "824": ".\" ",
        "825": "Uma ",
        "826": "vez ",
        "827": "mai",
        "828": "lig",
        "829": "do. A ",
        "830": "Big",
        "831": "Big ",
        "832": "Big B",
        "833": "Big Bang",
        "834": "veio ",
        "835": "que você ",
        "836": "funciona ",
        "837": "Tudo ",
        "838": "diferent",
        "839": "à",
        "840": "consegu",
        "841": "ni",
        "842": "fic",
        "843": "qual",
        "844": "qualqu",
        "845": "qualquer ",
        "846": "pelo ",
        "847": "press",
        "848": "** > > ",
        "849": "mos de ",
        "850": "naturez",
        "851": "il",
        "852": "Os ",
        "853": "duas faces ",
        "854": "eiro ",
        "855": "diz",
        "856": "consciência ",
        "857": "a e ",
        "858": "átom",
        "859": "ico",
        "860": "cresc",
        "861": "e uma ",
        "862": "a. ### ",
        "863": "ta",
        "864": "partí",
        "865": "partícul",
        "866": "ningu",
        "867": "ninguém ",
        "868": "bon",
        "869": ". ### ",
        "870": "suficiente ",
        "871": "suficiente para ",
        "872": "ej",
        "873": "aram ",
        "874": "ível ",
        "875": "comple",
        "876": "complexi",
        "877": "complexidade ",
        "878": "conh",
        "879": "3 ",
        "880": "nov",
        "881": "fim",
        "882": "como um ",
        "883": "superfí",
        "884": "superfíci",
        "885": "tor",
        "886": "que o universo ",
        "887": "é um ",
        "888": "ele ",
        "889": "eter",
        "890": "sistema ",
        "891": "pró",
        "892": "resist",
        "893": "galáxi",
        "894": "18",
        "895": "ure",
        "896": "- **",
        "897": "a. É ",
        "898": "energia ",
        "899": "const",
        "900": "â",
        "901": "1+",
        "902": "padrão ",
        "903": "ain",
        "904": "eia ",
        "905": "física ",
        "906": "som ",
        "907": "informação ",
        "908": "posi",
        "909": ". Se ",
        "910": "universo. ",
        "911": "Es",
        "912": "Como ",
        "913": "alh",
        "914": "fal",
        "915": "rio",
        "916": "ca",
        "917": "eu ",
        "918": "vist",
        "919": "assim",
        "920": "amos ",
        "921": "Deus ",
        "922": "você",
        "923": "tudo isso ",
        "924": "já ",
        "925": "adi",
        "926": "col",
        "927": "fica ",
        "928": "fa",
        "929": "senti",
        "930": "do. ### ",
        "931": "para o ",
        "932": "pequ",
        "933": "pequen",
        "934": "direit",
        "935": "esquer",
        "936": "estrel",
        "937": "é uma ",
        "938": "de for",
        "939": ". Não ",
        "940": "dentr",
        "941": "dobr",
        "942": "sou ",
        "943": "importa ",
        "944": "ável",
        "945": "pressão ",
        "946": "então ",
        "947": "está re",
        "948": "ver",
        "949": "ecendo ",
        "950": "Ch",
        "951": "Do",
        "952": "Dois ",
        "953": "da mesma ",
        "954": "matéri",
        "955": "a. O ",
        "956": "A consciência ",
        "957": "moeda ",
        "958": "coro",
        "959": "s. ",
        "960": "ped",
        "961": "padrõ",
        "962": "rela",
        "963": "mun",
        "964": "em todo ",
        "965": "em todo lug",
        "966": "ob",
        "967": "ções que ",
        "968": "descrev",
        "969": "sab",
        "970": "a. Mas ",
        "971": "forma de ",
        "972": "tão ",
        "973": "chamado ",
        "974": "fico",
        "975": "ficou ",
        "976": "pres",
        "977": "inv",
        "978": "invent",
        "979": "partículas ",
        "980": "ô",
        "981": "có",
        "982": "não é um ",
        "983": "complex",
        "984": "não tem ",
        "985": "onde o universo ",
        "986": "inc",
        "987": "cada ",
        "988": "ça ",
        "989": "lad",
        "990": "os e ",
        "991": "Ag",
        "992": "rol",
        "993": "ão. ",
        "994": "amente ",
        "995": "... ",
        "996": "chamamos de ",
        "997": "der",
        "998": "que o ",
        "999": ". O universo ",
        "1000": "min",
        "1001": "termost",
        "1002": "termostat",
        "1003": "det",
        "1004": "detec",
        "1005": "a o ",
        "1006": "or, ",
        "1007": "a c",
        "1008": "cal",
        "1009": "ciclo ",
        "1010": "condi",
        "1011": "nu",
        "1012": "rep",
        "1013": "repet",
        "1014": "ar, ",
        "1015": "e v",
        "1016": "foi ",
        "1017": "espir",
        "1018": "de uma ",
        "1019": "pes",
        "1020": "-- uma ",
        "1021": "div",
        "1022": "proporção á",
        "1023": "proporção áure"
    }
}